memory_initialization_radix = 16;
memory_initialization_vector=
0000071b0000038000000000fffff82000000a0400000b3600000000000009db0000000000000efe0000054500000000ffffeb18000000000000086800000784,00000aac00000560000000d1000010350000033400000504000006420000066800000ad900000ff3000012c2000009f8000012e5ffffeb22ffffee0a00000c1d,00000b1b00000dc8000016a5000008730000096c00000e2700000a30000007a9000007af0000000000000a5900000000ffffff58fffff61b00000e8000000870,000007bcfffff33700001264000012d4000006fbfffff2030000083b000005ee00000c7afffff2ca00000ab600000cb70000145c000009f20000083200000000,00001679000015330000155400000a840000314b0000068700001316000020b2000008bc000014a100001b500000271c0000159e000009c80000138900001621,0000354cfffffb6efffff163fffffff700002a1afffff9fc0000081f000006bd0000185800002fab000028a800001cba0000124a000031390000018f00002767,000033f70000422c00001eee0000147bffffddfafffff5a5000023be00000bbe00003333000040810000079500001de9000020db00003480000041250000207a,00001ec5ffffcecb00002c66000015d600000646000020e200000ac5000024f5ffffd9ef00003af400002e290000172000003d6e000028af00003c070000339d,00000c2e0000001efffff1a10000075600002a9e0000066afffffa800000541f000001d00000025cfffff38700000747ffffe0d5ffff912f0000004600000920,0000181100002a870000145b00001965fffff698fffffce700003484fffffca700000bfdffffe39000000b17ffffcf5affffdceaffffe904fffff071fffffc0d,fffffb5c00009e1ffffffcd2ffffeefb0000084d000002a600000b5a0000217600002b770000233f00002d52ffffb658fffffb44000009b200001dabffffff92,000018e3ffffe807000010affffffb4effffe75600001f87fffff61c00000ead0000159bffffdc0e000013f40000067ffffff57f0000406f000012a4000000f2,fffff69dfffff65f00001a2f0000429d0000122d0000201d00001b63000013ad0000019600000fd0000042b50000174d00000b6800002fd5ffffade000001064,000057b5ffffdd07000002edffffdc1f000024b3000042f400003860ffffefbafffffc26000038f000003f53ffffec7000000f20000036f9000006030000130b,fffff757fffff4f60000086800002e06000026f3ffffdc4700000a05ffffbeab0000344300001a5bfffff84afffffe5800006167000042b3ffffff03000024a0,00002cc5ffffc560fffffd3600002cc40000468c000003a100001c9200002190000005660000409100001c5800000bcf00003736fffffd7300001b40ffffae27,000003c0fffff4f800002f45fffffa4f00000060fffff5470000108900001fbafffff5a4fffff2b2fffffe25ffffface0000008fffffccc400000a24fffffb0b,000008ce0000043c0000023600002f760000082e00000398000004d2fffff5bdfffffd8afffffda0fffff99effffff2affffffb0fffff5e500000aaa000004b5,fffffee3000017bb00000870000016d600001296fffff8fcfffff38bffffff1b0000084d00001b7400000fd900002aecfffff8d300001f7cfffffe1a00002444,fffff37d000001a50000021dfffff997fffff2e80000058100000962fffff43effffebfb000001bdfffffcb600000b5afffff79c0000047d000016c700000ccb,fffff91100000c1900001cae000000800000182cffffeb35ffffeec700000876fffffb63000002dd00001a6000000ede000003a40000029affffdd7efffff2c6,ffffedc9fffff515fffff25b00000539fffffda9000000d700001082fffff55f0000170cffffdf560000054d00000d6a000014edffffe9b700005010fffff06b,000016f1000049e90000035e000026560000175d0000144fffffd06d000002830000134900001264fffffa83ffffd75600000c57ffffeda8fffff17200003d10,0000125dfffffd27fffffb09fffff7fe00002e37fffffaf5000008be000003e70000125c00001aa30000182e0000075300000ea600001072000007e600000b78,000002e3fffffad700002868000018d50000024900000f6ffffff69700000351ffffd2260000165400001879fffff088ffffde42ffffecbb0000021800001a1e,0000097b000001a400000af400000f16000004b60000069900000c39000002120000010300001cb7ffffe474000032b2fffff9bffffff052fffff3d400000cc9,00000a62000006060000057a00000b4cfffff572000001ef0000073f0000084100001002fffffe3afffffbc3ffffe3ecfffffe75fffffe2300003dda0000041b,0000030bfffffffc000024c8fffff8460000043fffffed2300000411ffffe55c000006b9000013bd000000bffffffcb50000005000001d7d000024c0000000cf,00000674ffffffc60000040e00000b98000009fd0000084a0000058ffffffd1200000689fffff67d0000026bffffffadfffff8860000046cffffffd60000061e,000002f50000025b000019adfffffaff0000063d00000841fffffead0000011e000000d2000016a9ffffff59000003ec00000063fffffceafffff94800000338,000004650000068a0000020c00000b4900000a6500000231fffffed9000008e1fffffea70000018cfffff267ffffff3600000dfa000000b4000007bb00002019,000000e2fffffd1300000ccdfffff35bffffffbefffffb07fffff38cfffffe68000009a2000002b6fffffd3200000385000009a0fffff91d000006eafffffeed,000000a6fffff76dfffffe01000001e60000061200000c09000001f2fffff6affffff6b900000776fffff4b400000424000003e3000004d4ffffff11fffffe91,0000005c000009b2fffffbe2fffff8c8fffff01d00000e7bfffffd4afffff7dcffffff25000001d90000040e000006a0000008e00000069c000005b9fffff3a3,000002f6ffffff4e0000019100000109000003300000023900000d8e00000a2f00000563fffff620000006430000016effffffc40000001000000f8100000635,00000307ffffdb18000002c40000186affffff8efffffd9ffffff25cfffffea20000017cfffffc08fffffd5a0000044effffe14900000649fffffd6d00000d2f,00001a91000009fc00000be6fffffc0400000baf0000025f0000078700001afa00000f2000003b8a000008140000166fffffff82000027560000116200001514,00000cbc0000152300001ce8fffffdb4fffffded00000dd80000129f000003d8000003a60000147500000856000014cbfffffd90ffffe3990000088500002507,0000179efffffc6b0000176affffff6800000a34fffffcc70000426500003ee700000f7500000dc00000042ffffff5d8000003df00001aa20000089b0000195b,000006e00000041b0000165700002d3ffffff6cf00000227000011f600000a0e000010a600001c84000015ba00000937fffff9a0000012a700000b9c0000166c,0000061f00000be2000016e3000003ea00000634000021a900000c8c000001850000071afffffe0afffffb6d0000264800000615000021cc0000185c00002a2a,000020bd00001083000011a200001157ffffcfdc00002307000023ea000011d60000085f00000a5400000d070000011e00003609000006ae00001de2000032b0,00005775ffffffea000001a20000132b000015210000018d000022cf00000081000009e300001e70000011560000005200002945fffffd64000014a70000053c,0000028c000005f0000011360000096c00001da4000014b50000032a0000249a00001ca9ffffef760000042c0000083100005dce0000111500000094ffffff13,00001c9a0000047b00000c04fffffd5ffffffd3600000a59000004d3fffffbe000001e1d00000d00000017da000025d800001e3effffcd4200000dd5000005fa,0000239e000012610000027e00000d9fffffedad00000ebefffff42300002a34fffff8ba0000048d00001a19fffff875fffffdf1ffffe09e000005cdfffff947,ffffec79fffffe9efffffaf4000002a800001037ffffffd800001270ffffff96ffffab4900000197fffffc020000200a00001159fffff291fffff2b8ffffdbb3,00000484fffffdf80000007100000a4c00001dc8fffff8dbfffff7e900003f900000071200000f1200000182fffffe7d00000009000006cd00000c9100000cc5,00000073fffff2de00000547ffffde2a00000a46ffffff27fffffd0c00001c04fffff8d200000b80ffffdab0fffffa11fffffdc700001125ffffaaedfffff587,0000077fffffcd22fffff994fffffff8ffffed7300000cebffffaf91fffffdccfffffd40fffff89400000dd4ffffef5a00001b64fffff2c2ffffeab4000003af,0000025200000d4cfffff94e00001c0cffffe875fffffd6bffffe5d300000d62000000edfffffe160000098c000008b0fffff15f00000ebefffff521ffffff43,ffffeeca00003be7000037f2ffffe1dc00000aca000022c40000302c00000b6cfffff331fffff4460000075c0000095400001abbffffe918ffffc9da00002354,fffff061fffff1090000116dfffffb46fffff5f6fffff3fbfffffb8d00000a0b000000a600000387fffff45900000e92fffffac4ffffde96fffff6defffff7b9,ffffffd400000601ffffee28fffff26d0000032dfffff50500000617ffffdefa00000390ffffdf72fffff8cefffff9c800000889fffff723fffffb24fffff65b,fffffb0900000920fffff98dfffff1bd000004a6fffff56a000010f5fffff2dffffffaac0000081b000021450000200700001068ffffe88cfffff0d1fffff52d,ffffff6efffffed9ffffe73d00004a68fffff57f00002429fffffd71ffffff3efffff2f000000783ffffe9effffff19afffff210ffffff5efffffbac00002d8e,fffff2f1fffffa97fffffa91ffffdb9200000011000009e4ffffe38ffffff8d3fffffb8afffffd14ffffe4fbfffffb330000202000000c69fffff549fffff7d4,00000196fffff75400000db40000039e000003a4ffffdc28fffff6000000172c00000042fffffd39fffffe610000133affffebfdfffff56f00001bd4ffffdd44,ffffec61fffff6d4ffffacaefffff234fffff24900001a7000000210fffff5f9000012280000104affffefc7fffff0d7fffff78c0000547bfffffd6d000002d6,ffffff2b00001083fffff314fffffbd4000007c500001927fffffd4bfffffa760000045a000015e4fffff0e4fffffa73ffffd264fffff587fffff6faffffeb0e,000019e800003f170000142c000042ea00001db8000020de0000037affffefcffffff34efffff417fffff07700001c2d00000358000011ce00000dbdfffffdaf,0000199300002784ffffecd8000004bbffffca37000014ae00002f5d00002044fffffcf6fffff0e4000029cc00000d1c00000c7dffffde9a00002ac8ffffdafb,00001d35000002ee00002667ffffedc1000010300000085b000016c5ffffff100000046e000026a0fffffc87000016c0000022befffffbd50000047fffffd13e,00000008000008a60000232f00003b2efffff646ffffd081000013affffff78ffffff898000017ca00001cb1ffffd07300002eeefffffe1a00001f2300003063,00001e6e00000653fffff20c0000174fffffea8a0000045200001cf100000ffb00001e31000018c6ffffffa70000069c00000ed500001e68ffffbcce00002242,0000325400000ff400001cf3fffff3e200001a71000014f5ffffef5000002536ffffdf0700000a170000192b000000b70000127500001aa0000013cdffffb100,00001027000019130000070900000c8e00002e3f00000dee00003697ffffdf14fffff861ffffe99c00000de700001449fffff95b00003853fffff3dd000006df,ffffcd71fffff113000017b40000092afffff40bfffffd420000221400001c9a00000235ffffe92c0000158c000015b0ffffe71bfffff1c200003af300000c34,000033c00000027a0000139bfffff9cefffff898ffffec4c00000df1000031c700000901000022ff00000a95fffff5f200000f5500000ddc000009e60000036b,000023ca000011fcfffff794000007710000273900000830000009dbffffd9ceffffcc3600001e9300000b74fffff7b600000a7c0000086200000e9500000596,00000c6f00002434ffffdf53000016bc00001cc1fffffbfa000022ea00000f91000020d8fffffe59000012b100006340000003d200001d3a00000d9dfffff28e,00000e22000002850000132c000006c8fffffcab00000992fffffc6900000c2600000cde0000405e00003c0b0000113100000c30fffff78f0000078200000f40,000015c0000007510000010000001a2b00000a06ffffec83000011ef000010f4fffffed2fffff6690000258f000022af0000037f0000166a00001587fffff832,000001a8000010a50000353400003094fffff811fffffc8affffd7e60000038700000f6700001833000013c000002af500000b7dfffff43bffffe85b000006d9,000012960000122d0000163d00000b4bfffffdf0000000f00000068e00000fad00000143000018130000366dfffff487000013bd00000f0c000003440000143c,00001dfc000002ef0000122b0000235c0000065affffeea40000026e00000cf2fffffd8b000020eb0000162dffffeac50000188000002ce4ffffff16000017fe,00000127fffffd3e000002ddffffffc80000005e0000042b000001e2000001bc00000c78fffffffa0000034e000002c00000086f000001c600000a4300000272,fffff704000001060000020e000000ddfffff8bffffff8be000006f6fffffee5ffffffa500000781fffffbf7000007d500000798fffffc09000001ad0000087d,fffff9100000061900000025fffffc4c0000007d000009170000043b00000760fffffe5a000003fd000002d50000040e000002ff000000ae00000e4e00000198,000005de000001450000093900000c8afffffe96000008290000051efffff0100000020dfffffe1a000005e50000054cffffff8dfffffa880000014700000601,000004dcfffffd3bfffffadd00000786ffffff64fffffe66000003eaffffffa1fffffe71000003b2fffff1f3000005cc00000965fffff80c00000ae3fffffd9e,000004170000046800000514ffffff1a00000e8900000072ffffff60fffffa3c00000516fffff079000003600000035cfffff92cfffffc13000000fc000000a2,000001c20000063800000c2dfffff407fffff62d00000558fffffe2d000005d1000007b20000036c0000050affffee08fffffd78000006b900000570fffffd4b,fffffca9fffffebc000006d3000000d700000480fffff0d30000036efffff186000001bbffffff0afffff2be000001ed00000473fffff630fffffa01ffffff11,0000025d000006eeffffea5b00000817fffffd260000013ffffff11c0000031efffffde1fffffb59fffffbf700000cbcfffffecc000005bf00000637fffff85f,000000d600000640fffffd850000058a000001adfffffc18000002c50000013900000453fffffe41ffffee7f00000080fffffe8100000586000002fdffffffb0,fffff5e7fffff781fffff5acffffff570000020dfffff8f10000061ffffffaa4fffffeadfffffc510000029efffffde6ffffff9f00000a3b0000052300000294,0000063000000015fffff921ffffff6cfffffeff00000324000000c2ffffffc90000003100000fef00000146fffffe63fffffe68fffff6eefffffc0900000574,000001a3000000f5fffffb7dfffffa7afffffd19000001d9fffff4040000011dfffffc27fffff2f000000858fffff90efffffd9e0000042afffffca300000072,0000019300000379000002b0fffffc76000001d4ffffff52000002b300000489ffffffdafffff4aafffffdfb0000058bfffff7c70000043f00000482000001e6,ffffff8b000003b4000007c5fffffdcb0000094a000007bdfffff9b0000002c8fffffc530000047dfffffd1f000007cf0000024800000513fffffaecfffffea2,000000560000007500000125fffffd4100000245000000fafffffe62fffffb3e000000990000009d0000058800000511000001fbfffffceaffffe9ab000005ff,000000fe00000d88000024fe000003be00001cc700000b4a00002a7500000da1000020e40000171e00000f3700002beafffff261000000200000392900001684,00001fc700001ddc000003a700003a2e00003cf1000002b500000096000022200000073300001e7f000021ee00001b0b000019ce00001867ffffe5b200002a7b,00000dd7fffff3c2000002a9fffffb220000200f00000a53000010b7fffff37c00001ef10000085400001620ffffeae3000002fb000000b000002bae0000176e,00002fe600001b6300000ff1ffffe48b00000f1b0000257b000009b6000004f900004efd0000107b00002690fffffb4200000cbc0000152c0000027700001292,0000089dfffff2bf000016f5000031fc00000eb1ffffff1a000031b3000002b4000015a900000c5900002f5900001033000019940000234bffffecaa00002061,0000239b00001f5d0000209b00000cf5000010e6000015ebfffff1ca000009e80000184300003b25000019910000023900001700ffffd31afffff053ffffe114,fffffbfb000012c9000023c2000026c30000290700002db7fffff392000013cb00000e19000000d000000fc800002bc80000030b00002013000005ed00001a59,00001b2500001a8300001a16fffff6f6000018ea00002e550000250fffffea69fffff36500001c4ffffff3920000228800000ded0000140a000015e8000052ef,ffffee8e00001d0800003763fffffbb2fffff53900001eeb000005a70000029700001944ffffe1d600000181000018abffffd2fd0000044400001e2e00001041,fffffedc00001f380000045d00000ab20000020c00002aef0000296b000012af00000878ffffff6300002be800000f8e0000283d00000d66000010b800001898,000004f100000b87000028a50000160bfffffde500000022000019d2000012a900001e39000003270000215300000f54fffffb9900001f42000030c3fffffbf9,000019320000121400001df3ffffcfaefffff1fb0000127800001535000015ea000006db00000a8f00003f0efffffb4d000002c5000028ad0000280d00001a7f,0000187900000273ffffd693000014dc00001d17fffff50affffcbc0ffffe964000015590000131700001395ffffdaf000000b43fffffec800000b0d00002042,00000f8ffffff6070000169dffffeb2900000742000018f900000d5200000e62000021ab000026670000197800000434fffff0b6000018a800001c9900000c5c,ffffe8950000003900002aa900001b35fffff6d300000ebe0000109100000c99fffff58200001f9c0000562d000027dafffffc4fffffd4df00004350000006d0,00001078000010640000230fffffcfea0000045b0000250cfffff84700000df400000c7800001022000014c600000a3a00000e2000000637ffffdeb100000221,fffff5f00000295a0000464d000017c800000c17fffffc2c0000379c000013d7000076d8ffffefbe00003eb600004b17000007d0ffffc792000007f9ffffee78,0000106d000004ae00007387000042b4fffffefefffffe81fffff23e000015a80000001200001cc400003bea00001b660000603d00000c61000007fe00002fae,0000064f00001d4e00004a02ffff73b300000ee1fffff5a900001cd80000965d00003285ffffd8e3000033ab00001bc90000415800001523ffffe1ca000059a5,fffffdc70000075cfffff427ffffc1a4000054f300000f30000017de0000632b000019460000014afffff34a00000b6300006752fffff383ffffdddc000048b4,0000018e000004f500008fda0000017a00002fb9ffffdd1f0000255c0000aa01fffff4ee00007233ffffa7e900004a50000024140000225c00004803000004c0,00007fee0000460600004d4e00006521ffffed86fffff54cffffc8d40000689f00002e700000215d00002caf000004fd000010d70000323bfffff5ad000089cf,000009a8000072cc00000b2200000f9e00000c54ffff9fb1ffffff5700001bfcffffd9d400003cac0000229bffffff27fffff6d0000025780000096600000c2c,ffffcec2000003a2ffffcd9500003c9900006711fffff116000032720000019cfffffeab00006779ffffb73ffffff4ee00001ee200000f55ffff8f5700000025,000006330000396affffec3800002c31000012c3ffffbc680000331b0000388e00000c44fffffd9d00000742000044fcffffb4b70000145100001ad3000034d9,ffffcc94ffffa6de00004117ffffd016ffffeb9100004c260000286dffffa0ae00001db20000432effffff9900002abeffffeecd000009a50000164500002536,ffffe73dffff83d000005169ffffba87ffffbdb900000761ffffee61ffffd0e600005013000020adfffff2c100002f19ffffd8a40000058600003196ffffe120,0000661b00004e6dffffc06800002a77ffff68fb00007b57000016ac0000392800003d10ffffd17a00005f0f000051b3000050130000451e0000252600000586,fffffd6200000db800004a0effffde07000003d6ffffcf37ffffe573ffffcc4200000b5efffff070ffffef55ffffee3100001fa400003946000015aa0000571f,00004fd2000013c7000057230000141d00001b52ffffda97ffffcf70000071cc00000496000039db0000220afffffc3000002ac00000563effffee21ffff479a,0000108f00002fa300001865ffffeee700006141ffffe09500002820000004f6000000d7ffff7a5000000e7000009a3e000029d9ffff97b9000045280000520f,fffff7da00005496fffff3b9fffff8fd000016b3fffffcc800000b080000589a00000e16000020dafffffa6c00005891ffffbb26ffff9e0a00001f9400002282,ffffed53fffff52dfffff22f000005dafffff137fffff94ffffff4a2fffff0cbfffff8fdfffff7d0000005f7fffff4c7ffffed34000007b5ffffea8800000d39,fffffc0efffff87500002bb1fffffcd1fffffe4100001985ffffe48cfffff390000012ecfffffb020000885afffff1e0000006690000217200000d88fffff129,ffffffa800000ae9000002c8ffffec1bfffff9a3fffffdc7fffffe93fffff1c6ffffefe4fffffc6c00000375ffffee23ffffffdefffff5e6ffffff11000003a1,fffff8ad00000025fffffd710000086200000cceffffeed100000b5100000f7ffffff78dffffeb29ffffcf4d0000131a0000152ffffffa8ffffff71effffed97,ffffec70000000d900001613fffff4640000127dfffff03efffff7fbfffffb1f00000763ffffe4c600000873ffffff8cffffddb1fffffae2ffffee1f0000041b,fffffca000000886ffffec1efffff671ffffedb0000008ba00000daffffffc0b0000040900001caa0000102bfffff62700001a4900000522fffff680ffffd6b8,000005c3fffff5da00000185fffff4740000034effffff83fffff17cffffff5ffffffa12fffff1c7ffffd5cd00001b2200000b2afffffec7ffffffd8fffffb4b,000002a300000d2900000aee000000bb0000012200002b1dfffff8d90000235000003125fffff0be000037d80000005800000c200000082400000a8000001c8c,fffff193fffff2b400000d5d00000ea4ffffe90600000a2efffffc64fffff9e6000011a2fffff402fffff5c0000001c7fffff5c9fffff61fffffe1c700000b1d,000006f60000117bffffe2680000057effffffd900000c4100001212000009c6fffff94efffffc3400000aa4fffff0640000004200001e60ffffef9b000051f2,0000117cffffea5c00001e9d000000360000082cfffff76d0000237ffffff96d000009f6000026baffffec06fffff2f5000058a00000061cfffff9bdfffff282,fffff03bffffecd200001f65000033b4000002adffffedfaffffe0fe00001047fffff98dfffff165ffff7dcf00004c32fffffbf400000043ffffff4dfffff515,fffff178000003d200002702fffff945fffffdd9fffff823fffffe5a00003a11000023bc00001d710000010e000047abfffffb83fffff673fffff9c900000985,fffff482fffff08cffffea04000037faffffed9300000318fffff55100000de200001185fffffe72fffff0fc00000070ffffe09800000983ffffed59000006e2,fffffe50000009f3fffff308fffff5fefffff1f7fffffe1100001ab6fffff46000004f46fffffb8f00000d5ffffffd9cfffff0f1fffff49b00001bccfffff484,000004dc00001be1fffff9b500003561fffff6730000007bfffffcb5000016e9000006dffffffcfa00000202000003cb00000b6d00000c6800000621fffff0df,0000239a00002394ffffeccf000023a600001829ffffea31000068640000434dffffd60c000029c80000043f00001ef5000023f1ffffe382ffffecdbffffe3c6,0000388700001d0c00001a9c00000bf100002226ffffd0f900001b5d0000072b00000f1600005dce00001ad4000011bc0000068fffffe5bb00001899000014b0,0000174d000038cc00001fe1fffffd8900003c4b00002b140000696e000033a4fffffee20000324bffffc119000081e600001f59ffffe0be000003d300001964,00000f27ffffbb04ffffe294ffffef57000035e500002a6900002ffb0000148f00000862000008f1fffff4a4fffffbf7000015500000323500008bc0000048e6,000024eafffffdef000068ae00008c32ffffe25bffffe3f90000119e00000e5c0000027a0000363400004606fffff2b600002a340000068d000012bb000020b4,0000041400002a0500004920ffff89040000174ffffff1efffffbcb0ffffcc16fffffac100004b4800003aa9ffffe590ffffc300ffffd5c700000f78000042dd,fffff805ffffd27200001354fffffe9400001d00000012c40000508c00002e8500000ad4ffffd91d0000422000005bc900002eed00000c7cffffe9000000358e,ffff9c7a000024d9000011a300002b3600002410000083f0000048e7ffffc5980000015d00001764ffffd3e1ffffff63ffffa61dffffdfdbffff9e40000000f4,000005ac000005400000123000001c040000332d0000493d000008300000336500001f2d0000296100003669000055b0000011bfffffac80ffffbc02000068d6,00000e3300001da2000039cd00001b6bfffff6d10000265bfffff57effffec8800001998ffffdf2400001ccb000011fc000000b0ffffd9bc00002428fffffbee,ffffe827fffffc9a00006961ffffdddfffffcb3800001d9d00001b6f00004c5c00002f48ffffe8db000037270000340effffd1030000325900004097ffffef80,0000290afffff5acffffe7e3fffffe28ffffd63cffffe9c700001e59fffffa5100002c000000255000003578000016aa00007d9b00004da300001f7800001bd3,00003448fffff6c200000ea900002507000037a4000014890000278800002cd900006c4effffc4caffffef870000278e000009c600002eb700003163000015d7,fffff805fffffeb0000022aefffff11b00003744000038ec000037a200000f7600001f150000244cffffb69900000980000026fe000052c6000040bc00000612,0000248100001db900001cbc00002e9800000c1c00000a46ffffd5c800001d5f00004adcfffff512000003fa000006f800004b53000014bd0000399fffffeda8,00001f1cffffb1eb00002742ffffb6acfffff85b00004a8c00000371ffffe0c500003d5cffffde01fffff45200007597ffffab9100003e5600000ebc00002762,00001c6d0000380effffffa3ffffaab5fffff8ac000057bf00000e26000027d200001a58000042d4000061960000341c0000348c00002bee00000efaffffefbf,ffff99d40000320e00002f88ffff91ff00000a19000039e200006f7f000043d5000016dc0000226c00004d90000028f600004ee80000355800002451ffffe424,fffffd2000001e67ffffec14000028ed0000224d000005cd0000483effffc85c000027110000146f0000284e00002bc10000191900003f97000017f3ffffe80c,ffff89e3fffffc340000294b000062a900000d7c00000e1f000018ec00004051000028e1000063fd00000e77000009d2ffffcdf0000069afffffe8200000321b,00002b11000013a6000054700000012cffff9e2d00002d43000028eb00000c2600000049000008de000008e9ffffd8880000176300003894000076aa00002e9c,ffffa9ef000023bb00007bbd00001d9e00004e3700003e8b000066f0fffff83f000029dfffffeaa1000029740000054e0000295600001c8600002f42fffffd72,000009c5000004d10000472000002d67ffffcda60000016bffffdb28fffff4ef000053d700004ed7ffffd2acfffff9d4000035d5fffff4460000025700006add,000011200000027ffffff7e500001838ffffdf11000001160000259300006245ffffb7d000005b0000001657ffffee8affffec0effffeb4d00000d4900006c44,00001b57fffff0b900000a3200001b0200004e670000266e000038ad0000016dfffff74a000021d50000323400001a11ffffaf7d00000413ffffe03e000073cd,000021f90000417affffe83400001b9affffd98900001020fffffef500003e4d00001ed9fffffcd1fffff506ffffdc49000015e900000d3dffffebcf00004814,0000321bffffc2cb00004f2b0000220d000002bc000039aafffff2f200000cc7fffff43efffff0c4fffff2db0000600b00000e0c00004cf5ffffebbbffffd954,fffff0e6000003ee00004fde00003322ffffca6700004d2100000632ffffdd2900002b5a00004412ffffe6ec00000952000057c300000351000022c900004f68,000007e0ffffb361ffffede1ffffe454ffffebb3ffffec06fffff162000015dd00001491000015100000147e000015ca000019f50000311e00000b8a000006bc,00001d940000313500001386ffffec5000005a1700003f9e00000704000008700000013c000026cb000002c7ffffe7af000047dc00001e0e00000ee7fffffdb8,00000d8500001cbb0000284e000040e300001d0d0000202200000eec00000797000008bf00005438000019e70000084affffc04700001bc0ffffa93b0000776d,00003637ffffeac7ffffee0c000038d600001d37000034a50000153f000051f700004ce4000045baffffc8590000165b000062ff00003e1500002c8b00004d4d,fffffe84fffff9a30000022bffffea75fffff5e6ffffff76fffffbfffffff1edfffffca300000600fffffcd0ffffed9effffeaf7ffffee33000000b5fffffd7d,fffffb1afffff303fffff886000007f8000003b500000be2ffffefedffffeb0bfffffb74fffff22300000f30fffff309fffff916fffffeb2000013defffff558,ffffdff9fffff5d5fffff476ffffe23c000002d1fffff4c1fffff451fffff7ffffffec11ffffef3f0000095cfffff1d9fffff2e7ffffeb2f0000097bfffffdaf,ffffe6fcfffff7c8fffffbed000000730000038cfffff141fffff239fffff6b9ffffdb40fffffaa2fffff07bffffef4900001220ffffff9e00000723ffffe981,fffff050fffffcc6fffff1f9fffff6e6fffff65bfffffb33fffff9a2ffffffa2000004fdffffffa0fffff8f2fffff21affffea96ffffed54fffffc83fffffaf9,0000021bfffffa0cffffef27fffff85000000007fffff06dfffffd16fffffb3dfffffe57fffff638ffffe9f4fffffbcc000001550000024cfffff060ffffef50,ffffecb7fffffc7effffe847fffff5f8ffffe60cfffffbf8ffffe09dfffff8ceffffed1a000008c60000001ffffff31900000422fffffcafffffffcfffffed25,fffffae9ffffe164ffffe872fffff32dfffffdf1fffff5b0ffffe57700000723fffff96dfffff099ffffd1b0fffff9eefffff7adfffffc1f00000c20fffff24f,ffffeb1f000007ce0000002b000001a9000005d1ffffeca6fffff99bfffff7f7000006ddfffff549fffff961fffffba9ffffeca9ffffeedbffffeae4fffffa34,fffff67efffffdd6000006fd00000176ffffeeec00001078fffffe76ffffeba4fffff4b4fffff62b00000539fffff6e3ffffde79fffff6defffff85affffef3a,fffff44bfffff699ffffffeafffff01dfffff3affffff8d1ffffedb4ffffee57ffffff10ffffefbcfffffdb9fffffd5dfffff96cfffff618fffffac2ffffe6b5,fffff23bffffee690000068cffffffe9000002d2000000e5fffffbfbfffff1aafffffca900000e93fffff1dd00000a0affffefac00000572ffffeff8ffffecb6,00000a29ffffedf7ffffff71fffffefaffffe9dafffffab4fffffba3fffff3fafffff03ffffff41dfffffdd90000098efffff627ffffe8ed000007e2ffffec8d,ffffee35fffff194fffffb26fffff1b0fffffea0fffff9d7fffff526fffff9d6fffff11e000000bafffff39efffffb3afffff91effffeaacfffff93cfffff9cd,ffffff25fffff7150000042cfffff6d9fffff39efffffa34ffffff5c00000584fffffe2bffffefa9ffffede400000667fffff1d9fffff7b6ffffec2afffff6b4,fffffd2cfffff5dd0000036d00000118fffffd59fffff1cb000003210000027dfffffc77000001fafffffe59ffffdff7fffff064ffffff6cffffeef5ffffebcd,000010a10000254800001db700000da200002738000028940000354700002ec9000034c0000012e8000011a100000c44000012700000170600002fd1000041b7,000016bf00002a0d00000039000017c30000220600002645000030b10000231800000ddb0000203a00002531000020d3000021dd000019d100002f630000253b,00