// Bias values (int32 hex)
000007840000086800000000ffffeb18000000000000054500000efe00000000000009db0000000000000b3600000a04fffff82000000000000003800000071b,
00000c1dffffee0affffeb22000012e5000009f8000012c200000ff300000ad90000066800000642000005040000033400001035000000d10000056000000aac,
0000087000000e80fffff61bffffff580000000000000a5900000000000007af000007a900000a3000000e270000096c00000873000016a500000dc800000b1b,
0000000000000832000009f20000145c00000cb700000ab6fffff2ca00000c7a000005ee0000083bfffff203000006fb000012d400001264fffff337000007bc,
0000162100001389000009c80000159e0000271c00001b50000014a1000008bc000020b200001316000006870000314b00000a84000015540000153300001679,
000027670000018f000031390000124a00001cba000028a800002fab00001858000006bd0000081ffffff9fc00002a1afffffff7fffff163fffffb6e0000354c,
0000207a0000412500003480000020db00001de900000795000040810000333300000bbe000023befffff5a5ffffddfa0000147b00001eee0000422c000033f7,
0000339d00003c07000028af00003d6e0000172000002e2900003af4ffffd9ef000024f500000ac5000020e200000646000015d600002c66ffffcecb00001ec5,
0000092000000046ffff912fffffe0d500000747fffff3870000025c000001d00000541ffffffa800000066a00002a9e00000756fffff1a10000001e00000c2e,
fffffc0dfffff071ffffe904ffffdceaffffcf5a00000b17ffffe39000000bfdfffffca700003484fffffce7fffff698000019650000145b00002a8700001811,
ffffff9200001dab000009b2fffffb44ffffb65800002d520000233f00002b770000217600000b5a000002a60000084dffffeefbfffffcd200009e1ffffffb5c,
000000f2000012a40000406ffffff57f0000067f000013f4ffffdc0e0000159b00000eadfffff61c00001f87ffffe756fffffb4e000010afffffe807000018e3,
00001064ffffade000002fd500000b680000174d000042b500000fd000000196000013ad00001b630000201d0000122d0000429d00001a2ffffff65ffffff69d,
0000130b00000603000036f900000f20ffffec7000003f53000038f0fffffc26ffffefba00003860000042f4000024b3ffffdc1f000002edffffdd07000057b5,
000024a0ffffff03000042b300006167fffffe58fffff84a00001a5b00003443ffffbeab00000a05ffffdc47000026f300002e0600000868fffff4f6fffff757,
ffffae2700001b40fffffd730000373600000bcf00001c5800004091000005660000219000001c92000003a10000468c00002cc4fffffd36ffffc56000002cc5,
fffffb0b00000a24ffffccc40000008ffffffacefffffe25fffff2b2fffff5a400001fba00001089fffff54700000060fffffa4f00002f45fffff4f8000003c0,
000004b500000aaafffff5e5ffffffb0ffffff2afffff99efffffda0fffffd8afffff5bd000004d2000003980000082e00002f76000002360000043c000008ce,
00002444fffffe1a00001f7cfffff8d300002aec00000fd900001b740000084dffffff1bfffff38bfffff8fc00001296000016d600000870000017bbfffffee3,
00000ccb000016c70000047dfffff79c00000b5afffffcb6000001bdffffebfbfffff43e0000096200000581fffff2e8fffff9970000021d000001a5fffff37d,
fffff2c6ffffdd7e0000029a000003a400000ede00001a60000002ddfffffb6300000876ffffeec7ffffeb350000182c0000008000001cae00000c19fffff911,
fffff06b00005010ffffe9b7000014ed00000d6a0000054dffffdf560000170cfffff55f00001082000000d7fffffda900000539fffff25bfffff515ffffedc9,
00003d10fffff172ffffeda800000c57ffffd756fffffa83000012640000134900000283ffffd06d0000144f0000175d000026560000035e000049e9000016f1,
00000b78000007e60000107200000ea6000007530000182e00001aa30000125c000003e7000008befffffaf500002e37fffff7fefffffb09fffffd270000125d,
00001a1e00000218ffffecbbffffde42fffff0880000187900001654ffffd22600000351fffff69700000f6f00000249000018d500002868fffffad7000002e3,
00000cc9fffff3d4fffff052fffff9bf000032b2ffffe47400001cb7000001030000021200000c3900000699000004b600000f1600000af4000001a40000097b,
0000041b00003ddafffffe23fffffe75ffffe3ecfffffbc3fffffe3a00001002000008410000073f000001effffff57200000b4c0000057a0000060600000a62,
000000cf000024c000001d7d00000050fffffcb5000000bf000013bd000006b9ffffe55c00000411ffffed230000043ffffff846000024c8fffffffc0000030b,
0000061effffffd60000046cfffff886ffffffad0000026bfffff67d00000689fffffd120000058f0000084a000009fd00000b980000040effffffc600000674,
00000338fffff948fffffcea00000063000003ecffffff59000016a9000000d20000011efffffead000008410000063dfffffaff000019ad0000025b000002f5,
00002019000007bb000000b400000dfaffffff36fffff2670000018cfffffea7000008e1fffffed90000023100000a6500000b490000020c0000068a00000465,
fffffeed000006eafffff91d000009a000000385fffffd32000002b6000009a2fffffe68fffff38cfffffb07ffffffbefffff35b00000ccdfffffd13000000e2,
fffffe91ffffff11000004d4000003e300000424fffff4b400000776fffff6b9fffff6af000001f200000c0900000612000001e6fffffe01fffff76d000000a6,
fffff3a3000005b90000069c000008e0000006a00000040e000001d9ffffff25fffff7dcfffffd4a00000e7bfffff01dfffff8c8fffffbe2000009b20000005c,
0000063500000f8100000010ffffffc40000016e00000643fffff6200000056300000a2f00000d8e00000239000003300000010900000191ffffff4e000002f6,
00000d2ffffffd6d00000649ffffe1490000044efffffd5afffffc080000017cfffffea2fffff25cfffffd9fffffff8e0000186a000002c4ffffdb1800000307,
000015140000116200002756ffffff820000166f0000081400003b8a00000f2000001afa000007870000025f00000baffffffc0400000be6000009fc00001a91,
0000250700000885ffffe399fffffd90000014cb0000085600001475000003a6000003d80000129f00000dd8fffffdedfffffdb400001ce80000152300000cbc,
0000195b0000089b00001aa2000003dffffff5d80000042f00000dc000000f7500003ee700004265fffffcc700000a34ffffff680000176afffffc6b0000179e,
0000166c00000b9c000012a7fffff9a000000937000015ba00001c84000010a600000a0e000011f600000227fffff6cf00002d3f000016570000041b000006e0,
00002a2a0000185c000021cc0000061500002648fffffb6dfffffe0a0000071a0000018500000c8c000021a900000634000003ea000016e300000be20000061f,
000032b000001de2000006ae000036090000011e00000d0700000a540000085f000011d6000023ea00002307ffffcfdc00001157000011a200001083000020bd,
0000053c000014a7fffffd6400002945000000520000115600001e70000009e300000081000022cf0000018d000015210000132b000001a2ffffffea00005775,
ffffff13000000940000111500005dce000008310000042cffffef7600001ca90000249a0000032a000014b500001da40000096c00001136000005f00000028c,
000005fa00000dd5ffffcd4200001e3e000025d8000017da00000d0000001e1dfffffbe0000004d300000a59fffffd36fffffd5f00000c040000047b00001c9a,
fffff947000005cdffffe09efffffdf1fffff87500001a190000048dfffff8ba00002a34fffff42300000ebeffffedad00000d9f0000027e000012610000239e,
ffffdbb3fffff2b8fffff291000011590000200afffffc0200000197ffffab49ffffff9600001270ffffffd800001037000002a8fffffaf4fffffe9effffec79,
00000cc500000c91000006cd00000009fffffe7d0000018200000f120000071200003f90fffff7e9fffff8db00001dc800000a4c00000071fffffdf800000484,
fffff587ffffaaed00001125fffffdc7fffffa11ffffdab000000b80fffff8d200001c04fffffd0cffffff2700000a46ffffde2a00000547fffff2de00000073,
000003afffffeab4fffff2c200001b64ffffef5a00000dd4fffff894fffffd40fffffdccffffaf9100000cebffffed73fffffff8fffff994ffffcd220000077f,
ffffff43fffff52100000ebefffff15f000008b00000098cfffffe16000000ed00000d62ffffe5d3fffffd6bffffe87500001c0cfffff94e00000d4c00000252,
00002354ffffc9daffffe91800001abb000009540000075cfffff446fffff33100000b6c0000302c000022c400000acaffffe1dc000037f200003be7ffffeeca,
fffff7b9fffff6deffffde96fffffac400000e92fffff45900000387000000a600000a0bfffffb8dfffff3fbfffff5f6fffffb460000116dfffff109fffff061,
fffff65bfffffb24fffff72300000889fffff9c8fffff8ceffffdf7200000390ffffdefa00000617fffff5050000032dfffff26dffffee2800000601ffffffd4,
fffff52dfffff0d1ffffe88c0000106800002007000021450000081bfffffaacfffff2df000010f5fffff56a000004a6fffff1bdfffff98d00000920fffffb09,
00002d8efffffbacffffff5efffff210fffff19affffe9ef00000783fffff2f0ffffff3efffffd7100002429fffff57f00004a68ffffe73dfffffed9ffffff6e,
fffff7d4fffff54900000c6900002020fffffb33ffffe4fbfffffd14fffffb8afffff8d3ffffe38f000009e400000011ffffdb92fffffa91fffffa97fffff2f1,
ffffdd4400001bd4fffff56fffffebfd0000133afffffe61fffffd39000000420000172cfffff600ffffdc28000003a40000039e00000db4fffff75400000196,
000002d6fffffd6d0000547bfffff78cfffff0d7ffffefc70000104a00001228fffff5f90000021000001a70fffff249fffff234ffffacaefffff6d4ffffec61,
ffffeb0efffff6fafffff587ffffd264fffffa73fffff0e4000015e40000045afffffa76fffffd4b00001927000007c5fffffbd4fffff31400001083ffffff2b,
fffffdaf00000dbd000011ce0000035800001c2dfffff077fffff417fffff34effffefcf0000037a000020de00001db8000042ea0000142c00003f17000019e8,
ffffdafb00002ac8ffffde9a00000c7d00000d1c000029ccfffff0e4fffffcf60000204400002f5d000014aeffffca37000004bbffffecd80000278400001993,
ffffd13e0000047ffffffbd5000022be000016c0fffffc87000026a00000046effffff10000016c50000085b00001030ffffedc100002667000002ee00001d35,
0000306300001f23fffffe1a00002eeeffffd07300001cb1000017cafffff898fffff78f000013afffffd081fffff64600003b2e0000232f000008a600000008,
00002242ffffbcce00001e6800000ed50000069cffffffa7000018c600001e3100000ffb00001cf100000452ffffea8a0000174ffffff20c0000065300001e6e,
ffffb100000013cd00001aa000001275000000b70000192b00000a17ffffdf0700002536ffffef50000014f500001a71fffff3e200001cf300000ff400003254,
000006dffffff3dd00003853fffff95b0000144900000de7ffffe99cfffff861ffffdf140000369700000dee00002e3f00000c8e000007090000191300001027,
00000c3400003af3fffff1c2ffffe71b000015b00000158cffffe92c0000023500001c9a00002214fffffd42fffff40b0000092a000017b4fffff113ffffcd71,
0000036b000009e600000ddc00000f55fffff5f200000a95000022ff00000901000031c700000df1ffffec4cfffff898fffff9ce0000139b0000027a000033c0,
0000059600000e950000086200000a7cfffff7b600000b7400001e93ffffcc36ffffd9ce000009db000008300000273900000771fffff794000011fc000023ca,
fffff28e00000d9d00001d3a000003d200006340000012b1fffffe59000020d800000f91000022eafffffbfa00001cc1000016bcffffdf530000243400000c6f,
00000f4000000782fffff78f00000c300000113100003c0b0000405e00000cde00000c26fffffc6900000992fffffcab000006c80000132c0000028500000e22,
fffff832000015870000166a0000037f000022af0000258ffffff669fffffed2000010f4000011efffffec8300000a0600001a2b0000010000000751000015c0,
000006d9ffffe85bfffff43b00000b7d00002af5000013c00000183300000f6700000387ffffd7e6fffffc8afffff8110000309400003534000010a5000001a8,
0000143c0000034400000f0c000013bdfffff4870000366d000018130000014300000fad0000068e000000f0fffffdf000000b4b0000163d0000122d00001296,
000017feffffff1600002ce400001880ffffeac50000162d000020ebfffffd8b00000cf20000026effffeea40000065a0000235c0000122b000002ef00001dfc,
0000027200000a43000001c60000086f000002c00000034efffffffa00000c78000001bc000001e20000042b0000005effffffc8000002ddfffffd3e00000127,
0000087d000001adfffffc0900000798000007d5fffffbf700000781ffffffa5fffffee5000006f6fffff8befffff8bf000000dd0000020e00000106fffff704,
0000019800000e4e000000ae000002ff0000040e000002d5000003fdfffffe5a000007600000043b000009170000007dfffffc4c0000002500000619fffff910,
0000060100000147fffffa88ffffff8d0000054c000005e5fffffe1a0000020dfffff0100000051e00000829fffffe9600000c8a0000093900000145000005de,
fffffd9e00000ae3fffff80c00000965000005ccfffff1f3000003b2fffffe71ffffffa1000003eafffffe66ffffff6400000786fffffaddfffffd3b000004dc,
000000a2000000fcfffffc13fffff92c0000035c00000360fffff07900000516fffffa3cffffff600000007200000e89ffffff1a000005140000046800000417,
fffffd4b00000570000006b9fffffd78ffffee080000050a0000036c000007b2000005d1fffffe2d00000558fffff62dfffff40700000c2d00000638000001c2,
ffffff11fffffa01fffff63000000473000001edfffff2beffffff0a000001bbfffff1860000036efffff0d300000480000000d7000006d3fffffebcfffffca9,
fffff85f00000637000005bffffffecc00000cbcfffffbf7fffffb59fffffde10000031efffff11c0000013ffffffd2600000817ffffea5b000006ee0000025d,
ffffffb0000002fd00000586fffffe8100000080ffffee7ffffffe410000045300000139000002c5fffffc18000001ad0000058afffffd8500000640000000d6,
000002940000052300000a3bffffff9ffffffde60000029efffffc51fffffeadfffffaa40000061ffffff8f10000020dffffff57fffff5acfffff781fffff5e7,
00000574fffffc09fffff6eefffffe68fffffe630000014600000fef00000031ffffffc9000000c200000324fffffeffffffff6cfffff9210000001500000630,
00000072fffffca30000042afffffd9efffff90e00000858fffff2f0fffffc270000011dfffff404000001d9fffffd19fffffa7afffffb7d000000f5000001a3,
000001e6000004820000043ffffff7c70000058bfffffdfbfffff4aaffffffda00000489000002b3ffffff52000001d4fffffc76000002b00000037900000193,
fffffea2fffffaec0000051300000248000007cffffffd1f0000047dfffffc53000002c8fffff9b0000007bd0000094afffffdcb000007c5000003b4ffffff8b,
000005ffffffe9abfffffcea000001fb00000511000005880000009d00000099fffffb3efffffe62000000fa00000245fffffd41000001250000007500000056,
000016840000392900000020fffff26100002bea00000f370000171e000020e400000da100002a7500000b4a00001cc7000003be000024fe00000d88000000fe,
00002a7bffffe5b200001867000019ce00001b0b000021ee00001e7f000007330000222000000096000002b500003cf100003a2e000003a700001ddc00001fc7,
0000176e00002bae000000b0000002fbffffeae3000016200000085400001ef1fffff37c000010b700000a530000200ffffffb22000002a9fffff3c200000dd7,
00001292000002770000152c00000cbcfffffb42000026900000107b00004efd000004f9000009b60000257b00000f1bffffe48b00000ff100001b6300002fe6,
00002061ffffecaa0000234b000019940000103300002f5900000c59000015a9000002b4000031b3ffffff1a00000eb1000031fc000016f5fffff2bf0000089d,
ffffe114fffff053ffffd31a00001700000002390000199100003b2500001843000009e8fffff1ca000015eb000010e600000cf50000209b00001f5d0000239b,
00001a59000005ed000020130000030b00002bc800000fc8000000d000000e19000013cbfffff39200002db700002907000026c3000023c2000012c9fffffbfb,
000052ef000015e80000140a00000ded00002288fffff39200001c4ffffff365ffffea690000250f00002e55000018eafffff6f600001a1600001a8300001b25,
0000104100001e2e00000444ffffd2fd000018ab00000181ffffe1d60000194400000297000005a700001eebfffff539fffffbb20000376300001d08ffffee8e,
00001898000010b800000d660000283d00000f8e00002be8ffffff6300000878000012af0000296b00002aef0000020c00000ab20000045d00001f38fffffedc,
fffffbf9000030c300001f42fffffb9900000f54000021530000032700001e39000012a9000019d200000022fffffde50000160b000028a500000b87000004f1,
00001a7f0000280d000028ad000002c5fffffb4d00003f0e00000a8f000006db000015ea0000153500001278fffff1fbffffcfae00001df30000121400001932,
0000204200000b0dfffffec800000b43ffffdaf0000013950000131700001559ffffe964ffffcbc0fffff50a00001d17000014dcffffd6930000027300001879,
00000c5c00001c99000018a8fffff0b6000004340000197800002667000021ab00000e6200000d52000018f900000742ffffeb290000169dfffff60700000f8f,
000006d000004350ffffd4dffffffc4f000027da0000562d00001f9cfffff58200000c990000109100000ebefffff6d300001b3500002aa900000039ffffe895,
00000221ffffdeb10000063700000e2000000a3a000014c60000102200000c7800000df4fffff8470000250c0000045bffffcfea0000230f0000106400001078,
ffffee78000007f9ffffc792000007d000004b1700003eb6ffffefbe000076d8000013d70000379cfffffc2c00000c17000017c80000464d0000295afffff5f0,
00002fae000007fe00000c610000603d00001b6600003bea00001cc400000012000015a8fffff23efffffe81fffffefe000042b400007387000004ae0000106d,
000059a5ffffe1ca000015230000415800001bc9000033abffffd8e3000032850000965d00001cd8fffff5a900000ee1ffff73b300004a0200001d4e0000064f,
000048b4ffffdddcfffff3830000675200000b63fffff34a0000014a000019460000632b000017de00000f30000054f3ffffc1a4fffff4270000075cfffffdc7,
000004c0000048030000225c0000241400004a50ffffa7e900007233fffff4ee0000aa010000255cffffdd1f00002fb90000017a00008fda000004f50000018e,
000089cffffff5ad0000323b000010d7000004fd00002caf0000215d00002e700000689fffffc8d4fffff54cffffed860000652100004d4e0000460600007fee,
00000c2c0000096600002578fffff6d0ffffff270000229b00003cacffffd9d400001bfcffffff57ffff9fb100000c5400000f9e00000b22000072cc000009a8,
00000025ffff8f5700000f5500001ee2fffff4eeffffb73f00006779fffffeab0000019c00003272fffff1160000671100003c99ffffcd95000003a2ffffcec2,
000034d900001ad300001451ffffb4b7000044fc00000742fffffd9d00000c440000388e0000331bffffbc68000012c300002c31ffffec380000396a00000633,
0000253600001645000009a5ffffeecd00002abeffffff990000432e00001db2ffffa0ae0000286d00004c26ffffeb91ffffd01600004117ffffa6deffffcc94,
ffffe1200000319600000586ffffd8a400002f19fffff2c1000020ad00005013ffffd0e6ffffee6100000761ffffbdb9ffffba8700005169ffff83d0ffffe73d,
00000586000025260000451e00005013000051b300005f0fffffd17a00003d1000003928000016ac00007b57ffff68fb00002a77ffffc06800004e6d0000661b,
0000571f000015aa0000394600001fa4ffffee31ffffef55fffff07000000b5effffcc42ffffe573ffffcf37000003d6ffffde0700004a0e00000db8fffffd62,
ffff479affffee210000563e00002ac0fffffc300000220a000039db00000496000071ccffffcf70ffffda9700001b520000141d00005723000013c700004fd2,
0000520f00004528ffff97b9000029d900009a3e00000e70ffff7a50000000d7000004f600002820ffffe09500006141ffffeee70000186500002fa30000108f,
0000228200001f94ffff9e0affffbb2600005891fffffa6c000020da00000e160000589a00000b08fffffcc8000016b3fffff8fdfffff3b900005496fffff7da,
00000d39ffffea88000007b5ffffed34fffff4c7000005f7fffff7d0fffff8fdfffff0cbfffff4a2fffff94ffffff137000005dafffff22ffffff52dffffed53,
fffff12900000d880000217200000669fffff1e00000885afffffb02000012ecfffff390ffffe48c00001985fffffe41fffffcd100002bb1fffff875fffffc0e,
000003a1ffffff11fffff5e6ffffffdeffffee2300000375fffffc6cffffefe4fffff1c6fffffe93fffffdc7fffff9a3ffffec1b000002c800000ae9ffffffa8,
ffffed97fffff71efffffa8f0000152f0000131affffcf4dffffeb29fffff78d00000f7f00000b51ffffeed100000cce00000862fffffd7100000025fffff8ad,
0000041bffffee1ffffffae2ffffddb1ffffff8c00000873ffffe4c600000763fffffb1ffffff7fbfffff03e0000127dfffff46400001613000000d9ffffec70,
ffffd6b8fffff6800000052200001a49fffff6270000102b00001caa00000409fffffc0b00000daf000008baffffedb0fffff671ffffec1e00000886fffffca0,
fffffb4bffffffd8fffffec700000b2a00001b22ffffd5cdfffff1c7fffffa12ffffff5ffffff17cffffff830000034efffff47400000185fffff5da000005c3,
00001c8c00000a800000082400000c2000000058000037d8fffff0be0000312500002350fffff8d900002b1d00000122000000bb00000aee00000d29000002a3,
00000b1dffffe1c7fffff61ffffff5c9000001c7fffff5c0fffff402000011a2fffff9e6fffffc6400000a2effffe90600000ea400000d5dfffff2b4fffff193,
000051f2ffffef9b00001e6000000042fffff06400000aa4fffffc34fffff94e000009c60000121200000c41ffffffd90000057effffe2680000117b000006f6,
fffff282fffff9bd0000061c000058a0fffff2f5ffffec06000026ba000009f6fffff96d0000237ffffff76d0000082c0000003600001e9dffffea5c0000117c,
fffff515ffffff4d00000043fffffbf400004c32ffff7dcffffff165fffff98d00001047ffffe0feffffedfa000002ad000033b400001f65ffffecd2fffff03b,
00000985fffff9c9fffff673fffffb83000047ab0000010e00001d71000023bc00003a11fffffe5afffff823fffffdd9fffff94500002702000003d2fffff178,
000006e2ffffed5900000983ffffe09800000070fffff0fcfffffe720000118500000de2fffff55100000318ffffed93000037faffffea04fffff08cfffff482,
fffff48400001bccfffff49bfffff0f1fffffd9c00000d5ffffffb8f00004f46fffff46000001ab6fffffe11fffff1f7fffff5fefffff308000009f3fffffe50,
fffff0df0000062100000c6800000b6d000003cb00000202fffffcfa000006df000016e9fffffcb50000007bfffff67300003561fffff9b500001be1000004dc,
ffffe3c6ffffecdbffffe382000023f100001ef50000043f000029c8ffffd60c0000434d00006864ffffea3100001829000023a6ffffeccf000023940000239a,
000014b000001899ffffe5bb0000068f000011bc00001ad400005dce00000f160000072b00001b5dffffd0f90000222600000bf100001a9c00001d0c00003887,
00001964000003d3ffffe0be00001f59000081e6ffffc1190000324bfffffee2000033a40000696e00002b1400003c4bfffffd8900001fe1000038cc0000174d,
000048e600008bc00000323500001550fffffbf7fffff4a4000008f1000008620000148f00002ffb00002a69000035e5ffffef57ffffe294ffffbb0400000f27,
000020b4000012bb0000068d00002a34fffff2b600004606000036340000027a00000e5c0000119effffe3f9ffffe25b00008c32000068aefffffdef000024ea,
000042dd00000f78ffffd5c7ffffc300ffffe59000003aa900004b48fffffac1ffffcc16ffffbcb0fffff1ef0000174fffff89040000492000002a0500000414,
0000358effffe90000000c7c00002eed00005bc900004220ffffd91d00000ad400002e850000508c000012c400001d00fffffe9400001354ffffd272fffff805,
000000f4ffff9e40ffffdfdbffffa61dffffff63ffffd3e1000017640000015dffffc598000048e7000083f00000241000002b36000011a3000024d9ffff9c7a,
000068d6ffffbc02ffffac80000011bf000055b0000036690000296100001f2d00003365000008300000493d0000332d00001c040000123000000540000005ac,
fffffbee00002428ffffd9bc000000b0000011fc00001ccbffffdf2400001998ffffec88fffff57e0000265bfffff6d100001b6b000039cd00001da200000e33,
ffffef800000409700003259ffffd1030000340e00003727ffffe8db00002f4800004c5c00001b6f00001d9dffffcb38ffffdddf00006961fffffc9affffe827,
00001bd300001f7800004da300007d9b000016aa000035780000255000002c00fffffa5100001e59ffffe9c7ffffd63cfffffe28ffffe7e3fffff5ac0000290a,
000015d70000316300002eb7000009c60000278effffef87ffffc4ca00006c4e00002cd90000278800001489000037a40000250700000ea9fffff6c200003448,
00000612000040bc000052c6000026fe00000980ffffb6990000244c00001f1500000f76000037a2000038ec00003744fffff11b000022aefffffeb0fffff805,
ffffeda80000399f000014bd00004b53000006f8000003fafffff51200004adc00001d5fffffd5c800000a4600000c1c00002e9800001cbc00001db900002481,
0000276200000ebc00003e56ffffab9100007597fffff452ffffde0100003d5cffffe0c50000037100004a8cfffff85bffffb6ac00002742ffffb1eb00001f1c,
ffffefbf00000efa00002bee0000348c0000341c00006196000042d400001a58000027d200000e26000057bffffff8acffffaab5ffffffa30000380e00001c6d,
ffffe424000024510000355800004ee8000028f600004d900000226c000016dc000043d500006f7f000039e200000a19ffff91ff00002f880000320effff99d4,
ffffe80c000017f300003f970000191900002bc10000284e0000146f00002711ffffc85c0000483e000005cd0000224d000028edffffec1400001e67fffffd20,
0000321bffffe820000069afffffcdf0000009d200000e77000063fd000028e100004051000018ec00000e1f00000d7c000062a90000294bfffffc34ffff89e3,
00002e9c000076aa0000389400001763ffffd888000008e9000008de0000004900000c26000028eb00002d43ffff9e2d0000012c00005470000013a600002b11,
fffffd7200002f4200001c86000029560000054e00002974ffffeaa1000029dffffff83f000066f000003e8b00004e3700001d9e00007bbd000023bbffffa9ef,
00006add00000257fffff446000035d5fffff9d4ffffd2ac00004ed7000053d7fffff4efffffdb280000016bffffcda600002d6700004720000004d1000009c5,
00006c4400000d49ffffeb4dffffec0effffee8a0000165700005b00ffffb7d0000062450000259300000116ffffdf1100001838fffff7e50000027f00001120,
000073cdffffe03e00000413ffffaf7d00001a1100003234000021d5fffff74a0000016d000038ad0000266e00004e6700001b0200000a32fffff0b900001b57,
00004814ffffebcf00000d3d000015e9ffffdc49fffff506fffffcd100001ed900003e4dfffffef500001020ffffd98900001b9affffe8340000417a000021f9,
ffffd954ffffebbb00004cf500000e0c0000600bfffff2dbfffff0c4fffff43e00000cc7fffff2f2000039aa000002bc0000220d00004f2bffffc2cb0000321b,
00004f68000022c900000351000057c300000952ffffe6ec0000441200002b5affffdd290000063200004d21ffffca670000332200004fde000003eefffff0e6,
000006bc00000b8a0000311e000019f5000015ca0000147e0000151000001491000015ddfffff162ffffec06ffffebb3ffffe454ffffede1ffffb361000007e0,
fffffdb800000ee700001e0e000047dcffffe7af000002c7000026cb0000013c000008700000070400003f9e00005a17ffffec50000013860000313500001d94,
0000776dffffa93b00001bc0ffffc0470000084a000019e700005438000008bf0000079700000eec0000202200001d0d000040e30000284e00001cbb00000d85,
00004d4d00002c8b00003e15000062ff0000165bffffc859000045ba00004ce4000051f70000153f000034a500001d37000038d6ffffee0cffffeac700003637,
fffffd7d000000b5ffffee33ffffeaf7ffffed9efffffcd000000600fffffca3fffff1edfffffbffffffff76fffff5e6ffffea750000022bfffff9a3fffffe84,
fffff558000013defffffeb2fffff916fffff30900000f30fffff223fffffb74ffffeb0bffffefed00000be2000003b5000007f8fffff886fffff303fffffb1a,
fffffdaf0000097bffffeb2ffffff2e7fffff1d90000095cffffef3fffffec11fffff7fffffff451fffff4c1000002d1ffffe23cfffff476fffff5d5ffffdff9,
ffffe98100000723ffffff9e00001220ffffef49fffff07bfffffaa2ffffdb40fffff6b9fffff239fffff1410000038c00000073fffffbedfffff7c8ffffe6fc,
fffffaf9fffffc83ffffed54ffffea96fffff21afffff8f2ffffffa0000004fdffffffa2fffff9a2fffffb33fffff65bfffff6e6fffff1f9fffffcc6fffff050,
ffffef50fffff0600000024c00000155fffffbccffffe9f4fffff638fffffe57fffffb3dfffffd16fffff06d00000007fffff850ffffef27fffffa0c0000021b,
ffffed25ffffffcffffffcaf00000422fffff3190000001f000008c6ffffed1afffff8ceffffe09dfffffbf8ffffe60cfffff5f8ffffe847fffffc7effffecb7,
fffff24f00000c20fffffc1ffffff7adfffff9eeffffd1b0fffff099fffff96d00000723ffffe577fffff5b0fffffdf1fffff32dffffe872ffffe164fffffae9,
fffffa34ffffeae4ffffeedbffffeca9fffffba9fffff961fffff549000006ddfffff7f7fffff99bffffeca6000005d1000001a90000002b000007ceffffeb1f,
ffffef3afffff85afffff6deffffde79fffff6e300000539fffff62bfffff4b4ffffeba4fffffe7600001078ffffeeec00000176000006fdfffffdd6fffff67e,
ffffe6b5fffffac2fffff618fffff96cfffffd5dfffffdb9ffffefbcffffff10ffffee57ffffedb4fffff8d1fffff3affffff01dffffffeafffff699fffff44b,
ffffecb6ffffeff800000572ffffefac00000a0afffff1dd00000e93fffffca9fffff1aafffffbfb000000e5000002d2ffffffe90000068cffffee69fffff23b,
ffffec8d000007e2ffffe8edfffff6270000098efffffdd9fffff41dfffff03ffffff3fafffffba3fffffab4ffffe9dafffffefaffffff71ffffedf700000a29,
fffff9cdfffff93cffffeaacfffff91efffffb3afffff39e000000bafffff11efffff9d6fffff526fffff9d7fffffea0fffff1b0fffffb26fffff194ffffee35,
fffff6b4ffffec2afffff7b6fffff1d900000667ffffede4ffffefa9fffffe2b00000584ffffff5cfffffa34fffff39efffff6d90000042cfffff715ffffff25,
ffffebcdffffeef5ffffff6cfffff064ffffdff7fffffe59000001fafffffc770000027d00000321fffff1cbfffffd59000001180000036dfffff5ddfffffd2c,
fffffaeeffffed4ffffff353000007fbffffec6bfffffdf2000004eafffffcd5ffffe33ffffffa23000001a2ffffef07ffffd405ffffe559fffff8ebffffe32f,
fffff41c0000041cfffff7b4fffff612fffff652ffffe50a000009a1fffff379000000a7ffffed73fffff946fffffd2c00000d57ffffe6fffffffe01fffff6b3,
000009adffffed8dfffffbc7ffffe7bcfffff960fffff283fffffb57fffff37cfffff937fffff756ffffff39ffffff8fffffde67ffffff3dfffff8f1ffffea6c,
fffff648fffffcb1fffffa96fffff4ec000005e3fffff505fffffad3fffffc3efffff739000000abfffff0daffffee00fffffd42fffffcdcffffeae800000b4d,
0000040c00000087ffffe912ffffeef600000032fffffe6bfffff484fffff540fffff9c5fffffba7fffff3fcfffffbebfffffed3ffffe0c0ffffe608fffff543,
00000732fffff3b1fffffd34fffff76dfffff7d5000007f7fffffeb7fffff1f4000000c9ffffe949fffff958fffff5ad0000029a00000aebfffff75500000827,
fffffa0effffe627fffff190000008a9ffffe0f9fffff145fffff8b9fffff875fffff31a0000057c0000068efffff763ffffefc4fffff485ffffec69fffff6e1,
ffffec30fffff1eefffff4a1fffffadbffffc6f2ffffe402fffff4bafffff6cbfffff232fffff258fffff45affffedabffffff2bfffff663ffffeca200000c14,
000001730000064a000002f4ffffe990fffffa12fffffc9affffef8100000850fffffae8fffffdc5fffffcfbffffeaa9fffff9ccffffeb24ffffff3cfffffa2d,
fffff4750000005efffffba5ffffebb9ffffe37c00000d0dffffeee4ffffedbfffffe887ffffefd7fffff521000007c8ffffea0cfffff96dffffefa2fffffce6,
fffffbaffffff099ffffed42ffffe45e000002abfffff9cbfffff4f6fffff1cdffffffa4fffff6fcfffff0bcfffff317fffffdc00000017fffffdc23fffff1f5,
ffffff66fffff4c9fffff9bcffffd246fffff2cefffffc720000020dfffff6d900000024fffff248ffffe74bfffffcbefffff570ffffe806ffffeff9fffff7d1,
fffff986ffffe9de000002e3fffff858ffffef74fffff3a2fffff9b8fffff52dffffebd7000006e1fffff179fffffea6fffffe1bfffffed7fffff410ffffe501,
fffff8bcffffecd2000007fcfffffed2fffffda7fffff64efffffaa8fffffe38fffff4d9fffff4f70000017afffff1b7fffff55cfffff514000008d5fffff0ae,
fffff3220000097afffff223000003f3ffffe6b8fffffe64fffffbf4000002b7ffffef7effffee6b0000028affffee44fffffa36ffffeb3fffffef15ffffee50,
fffff867fffffb79ffffff57fffff436fffff898fffff41cffffe68dfffff7c2fffffebbffffe94afffff90000000fa00000085efffff5abffffebb9fffff3d2,
000041b700002fd1000017060000127000000c44000011a1000012e8000034c000002ec900003547000028940000273800000da200001db700002548000010a1,
0000253b00002f63000019d1000021dd000020d3000025310000203a00000ddb00002318000030b10000264500002206000017c30000003900002a0d000016bf,
0000233400001fa800001f30000017dd00003e2e000004a1fffffab3000010fd0000201d000044ab00002a6900001b4e0000176600002bc7000039fa000029b9,
000002b6000026a800001c6d00000aa1000020e0000028f800001d6900001fae00000eb00000282c00003fdc0000247600002bf20000134700002f6e0000321e,
000030d00000078100002b9100003ac1fffffb0d000039d500000cfb0000346a00001ffc000032cc00000c450000265b00002f070000186d000028bf000012f6,
00001ce800000f9000000f9900001a940000256a000022c00000308900000e1b00002584ffffdbcd00000e2e00000865000021f80000187700001fcf00001efa,
0000018900001fbd000004f2000038db0000291900003561000053aa0000109e00000bb9000010cc000034c1000031c60000223500001f1d00002ac40000210a,
fffff77200002aa30000495d000014ff00002e9fffffffbc000020f800000a50000024c100003028000027e1000024f600003ac900004cc2000049e4ffffd1de,
000014d800000ed900001beb000020b0000015e3fffffc5d000006c90000119500002412000014a300000d6a0000265f0000177e0000028b0000146e00000799,
00000e68000031510000256900001b1900001bd70000120c000028490000338d00002a100000310600002be40000194000001ffdffffe74b00001093fffffb8b,
000017be00000bc900000f1300000cc700002def00002bd9000031840000193c000018890000118200002d6c00002d1ffffff7da000022a3000020af00000d2b,
00002223000011230000423d00001ad80000101800001ae00000118e0000153a0000138e00001abf00003bc700000e73000061da000024800000485c00000047,
00001c8f0000108f00001b6500003b63000032ef00001972000016d200000dac000038dc000027e900001c660000170200002341000015ee00001ee600001299,
000031f5fffff0c500001fd000003351000031d300001253000031defffffdc100000f1a00000be500003b3f000039b500001c8f000003a8fffff37000002273,
000040470000182f000026a30000168500000ffb00002aae0000156f0000292a00003530ffff8a3900002bd6000000d50000281fffff6708000027430000655f,
00002d0700005444fffffc330000040e0000316e000041f50000217e0000316f000029640000055b00002c56000020770000075dfffff6df00002446000047f7,
0000122900001246ffffedc60000212000001956fffff4c80000337700002117fffff7a000000eb7000000ee00001e6900001485ffffdb7800003f30000035ae,
fffffe2d000012bd0000321b00002b4c0000380b00002bc200001ab50000339d00002c55000011610000193e0000281dfffff00bfffffecd00001bce00001915,
0000266400003f9b00004272000008dd0000151300002186000021e8000010840000142d000013ad000015d300001e5c00000f120000325d000019c80000216a,
00001d4e0000247300001eb600001f0ffffff9e000001c7700002b5800003dce000019b100000737000011ce00001b3800001f190000178b0000391f00001f08,
00001c50000011f40000288500000a9b00002b770000252b0000232700003b230000165f00001fcf00002b4100003693000049cb000031bd00001bf3000039f2,
0000398b0000099900000c160000040600001fa900001bf3000016e800003a0300002a01000033440000337e0000184d00001bff00003651000029c400002b04,
0000129d00001f4500001866fffff82900001f070000158200001b5bfffff1630000225700000bee00002b2d00002cb2fffffd30000015ad000026a90000120f,
fffffb74000009a60000434100001f6100004ad6000038a00000148100002ec60000163f00001e890000005300001c45000013c200001aa3fffffe0f00000cda,
00002360000014db0000360c000020ec0000317e0000196d0000314200000a7cfffff03e000022b900001f6b0000100e00001d8e00002e510000238b00001c6a,
00000f9800000c93000018aa00003391000008ad0000196800001d8600002f5e00000ce800002c250000312200003a8bfffffb2c00002f17000007f100001584,
0000074f00000d4a00003c3200000c5a00003036000005af00002700fffffd360000394f000012f4000031920000382b00002c9c00000c020000590d00001f4f,
00000f9d000039440000028d00000fb1000036d700001b570000213f00001f3b000023d400002b820000423200001afb00001b9600001e53000038b700002780,
00000abb0000131c0000093b00001dae0000244bfffff129000011a400001b7300001787000009d600002874000016ae000033470000265600002eed00002b12,
0000008b00001d8900003e0500000aed00001be6000025ca00000b7a00003109000023290000289c00000ee30000163d000038330000160b00002ae60000470d,
00001f890000092300001c4800001fb200003c980000177b000024a200003be50000187000003a92000005aa0000242f0000376b000025610000353c0000272a,
fffff190000007ed00001d9c000023ed000024b000002406fffff6d90000069f000005d100000c67000016ab000022f5000021c900003dbcfffffe9200003bf6,
0000457c00005ff7000027fc0000471900006383000033550000480f00003cda00001df200003ae000003c3100003e520000417c000057cc000028cb000057d4,
000037b400004ac6000045d90000276f0000307c000018930000415200003b370000929900004df70000200400002ea800001d46000040c6000034740000528a,
00004f56000065cf0000449c00004a34000054f500004307000041180000363e00001e8e00004fe400003f97000043e6000043bb00003fcc000042f300003566,
000047ce0000297600006b1b000052590000580300005ee80000467f0000531000002a3300002c70000055750000468e000031b00000162100004bae00002968,
00002d2300003967000047b300002a48000074eb00003fb5000046b6000052b30000589a00004c5400005814000058eb00004f1500005f720000595d00003726,
00004948000055890000672b00004037000048c40000522900004f11000096ad0000578200005a2500004682000015b3000049e600004eb600006fc6000039f3,
000040a4000044bd000046ed0000510700005bb40000526f000032a800004d800000354900006cf3000036190000354a000046670000571b000062a900004f55,
000042a9000046a6000052fdffff04840000636500003e1200005f230000546400003760000053ed00003ec1000039bf000048db00003894000046c500002a60,
00004d81000051bd00005cad000034ad000056b500005a44000035370000323300003388000040670000252f0000240500001cd90000319a0000759500004c0f,
00005f5200004aad0000328900006487000047ef00003a6400005384000028190000442a00006f0900002d5d0000373d0000310200005743000043bf00005559,
0000431300004ea00000524e00004c6d000054c000003854000047a800005e00000016d800004707000024750000379500001be700005537000043c5000044eb,
000045190000412900004ecf00004a0e0000460f0000531b00004a0b000050da00003e400000464f000057c000005c8300004654000030980000443100004cdb,
0000365700005b4f000036f900003279fffff1ad00003805000034fb00004a4c0000368700004f7a0000100800005500000045140000415a0000451b000054b5,
00003b4900002e1a00005cbd000050160000587d00003a4c00005cb000004d6900002100000045230000428a0000438c0000308600002c860000425800002567,
000052aa000069310000512400004e990000374300004144000046ca00006ed500005cf2000067370000359700007128000070d40000251d00002f6300004282,
000048800000413900004c4e0000814400003b41000040aa0000371a0000297c000048be00004b3f00004c0f000026d60000318800005c0f00004b9c000022bb,
000033d0000034a6000043980000381f000059f90000232600002a7000004daa0000518900002e2d00004052000046090000353c000026b900002c55000043f9,
00004b2d000046a0000056b300004d1a00004a9e000043a30000651e000037360000429a0000322100005b0a00002ef200005771000038a60000353900003c95,
000064ad00004599000048cd0000507c00002a8600003db20000523000002c1c000040f600003bbf00004ca800004b58000068e2000070670000369b00005991,
000051c700004559000067020000549f00005ef000005ee90000621d00004dd2000046e600004b9000002e3c0000410b00004c1600006c350000487e00000068,
000049d400002a7900001cfc000050e1000076710000440800003c32000055cd00001972000058dc00002ccd00005a700000424d00004ca30000694d000068c7,
000020c300004c7e000027dd00003791000047f2000029e3000063f6000051d30000135e00004a64000038b0000052f70000451700004f4e0000325500003ba0,
000048750000435a000053bd00005a5b000035b000001e5400003e9b000050b20000419400005716000058c500004f7700004424000057590000462300003e5d,
00001ff9000035790000250b00006488000053f50000619e0000392e00002a2700002be6000062b2000049c00000455d0000506d000054c00000341f00004833,
00004d2d000067f10000577600002c7e00002cf300002c5900004ce4000042ca00003394000060dd00001a8e0000567b000036f10000512500004cfe00004e3d,
0000091000003c15000042f80000509d000037940000601100006d8f0000279d00002f1f0000356b000051f10000441700004a62fffff9d900002de600003a48,
00003a8d0000496a0000322700004ccd000032730000437b00003f48000015a00000354600004bff000024040000370c0000363c00003ab40000574100007ca5,
000064f60000422d0000404b0000224200003897000048030000383c0000497e0000243c0000450500003ded00003c7400006e2800003f5800004a0700002cf1,
00005df600004c3200002e3a00001d3600007582000051a800005d2200005449000035f8000048dc0000388700003861000069030000338000003c140000500a,
00006e1d000046de00004aeb00004f9d0000405b00005328000039dc000051c7000039960000404e0000492d0000627a00006bb800005dfa00003d8500004582,
00001c2500006fba000040ac00003d08000053b300005aaf000048b00000602c000054b6000021fe0000298b00000ed70000593000005d9000002f27000052e7,
000049510000669e000067d700004459000037f800004553000036e300005a1700005d540000509500004b050000593800005857000057b000005a6600005cd6,
000018da00003d7f0000357d000025fd000036ea00002053000021a70000348affffe4e300002ff600002d7a0000173900002c4f00000fa30000343f000026a9,
00002874000076b4000002a000002f740000092500004f6a000024a5000032ec0000131d00001ddc000022b000003854000025f80000389d000023ce00002508,
0000202400002c98000021a70000229e0000294c00003f250000278c0000294000004f7100002f09000047880000155a00002b55000032f300001519fffffc7e,
0000354100002a0c00002a030000152a000035070000227d00001e4500002c54000033a8000024ba00004a73000038d500003b7d0000249a00004498000039cc,
0000260a0000439800000dcd0000395700003d81000028b0000025f000002bb50000213100002f1d0000371e00003adf0000307a0000242c000039cb000032f1,
0000312600000f0e000035b5fffffd4600002fce000033e00000270a00002a91000030840000113a0000222f00001ad000001a5800002d3a0000272f000029ab,
0000306a000043c50000239a0000191700004c5d00003f3b00003fda00004415000015dc000014c400003a6400002f4e0000226500002c580000118b00002bca,
000025c000002f00000043ba00002adc0000383cffffdab300002c35000024950000308800001b730000329500000c2b00000dd30000247200001fab00003132,
000038890000279f0000399d0000371e00002fb3000024fd000050750000465a000037af000028860000252000002865000017ea00002fa900002f5a00005a30,
00002299000023ca000015a900001e0a000030d000004fa2000035c000001b29000023a400001c0100003f22000032890000265b00001b0100001b5d00002b7c,
00003d070000442100002c76fffff72f0000264100000d1700002767000037b6000035c60000336e00002216000031a500001a3800002ae20000343700001cda,
000025b9000024cd000046ef0000320100000ab10000220900004192000054f300001fc4000033e60000286600003f8a000022ea00003576000020f500000ff4,
000009c80000410900003bee0000193200003b8000001f4300001b630000347d0000316b00003e3f00004bff00002dc7000023650000361b000020cf0000192b,
00004951000045ba0000231500000987000027a900003c56000030e700003b7300003a980000261f00002363000044170000330c00003101000007b200001a6c,
00000f6a00003fe700002b2300004c44000005e70000531200002b6f0000249b00001d6c00001a6300001fc600000bdf0000214e00003fa600002f9800002848,
000024c600002cc700002f6200003823000011c200004297000049610000308a0000298b00002a550000282f00000f410000377f000032430000234600004d65,
00002eec000034d000003abe00002ca000002c90000034c500003c9700002a36000042a70000314b000016500000354200000a8900002598000027d40000367b,
00001cfd00001e4b000024f200002120000036ab000031470000313f00002dff000015ae00001b7e00001934000019c300001a4100000f4c00002ced00002f88,
000031b700002c550000519700001aa70000061b000018a400001f3a00001a6d000032d70000457900001c0f0000328c00000c670000326f00001f430000259f,
000021310000186a000012f200002a59000036c800003a3300003b89000029e0000032fc00002a0700002bb900001f42000020f80000147f000031c400001306,
000036c8000039d2000023d000002ea7000024da00002dfb000006f30000287000002a0800002c8800001a22fffff92700002c3e00000f670000406100001bad,
00001a270000263100002d740000105200003dbf000019560000477a0000125c00002d240000210000002e7600000b750000343f000027c6000029bd000027cd,
00001c5d00003b8e0000372f00001b94000012fd0000156c00003b16000026c4000020e5000021e300000f7600002e860000307400002102000031ce00002c95,
00001efa00001d01000039c30000161100003f64000039ca00002bd200002af4000032820000320e000040e50000076100003f64000018b2000014b1000038e2,
0000354200001d660000106b00002830000034c800004d8f00001ffe0000297100003fb6000046030000364300001b4e000034b900001a0000002bed00001f6e,
0000548000003bae00001a7100002c6dfffff56b000027380000334300002f0600000c61000019f50000279e00004e3a000011f7000035700000132c00005540,
00001ab30000204d00001b3e000035ad000018e4000038ab000024d1000029c2000020cf0000127100001f3500004f7f00002524000006580000229900003ccc,
000042d20000238800003ce1000053f600001e0800001cca000034e4000030dc00002504000014400000357600003bbb00003c4e00003090000052f900002536,
00002da000001252000026db00000e6f0000434200001a7200003347000035ce00001c6a00002b220000163d000015c20000335d000026fd000032aa00003187,
00001feb000048c6000036d80000269b0000398100002d9800002a5a00002f07000021ab00002cd800001db000002dc20000160b0000279b00003f8300003990,
0000451a0000347b00002fec00002c6000001e1b0000218800003af6000031ac00006090000027300000433e000029e700002b210000377c00001fb500001a27,
00001a0b00002bfe00002d6b00004158000021e0000017d000003df800000f1300004b290000272c00001d06000040f7000022640000412800003b1600002a68,
ffffffe90000001b00000006ffffff100000003900000076ffffff9c000000b8ffffffe0ffffff92ffffff8fffffffc0ffffff54ffffff21ffffff96ffffffb6,
ffffffabffffff6b00000052ffffff77000000400000011200000076ffffffbb0000002a000000640000008effffff6bfffffff7ffffffdf0000003affffff95,
00000051fffffff90000004fffffff15ffffff7e0000001a0000001affffff56ffffffd50000007b00000058ffffff5c000000b00000000f0000006fffffffce,
ffffffa10000000400000026ffffff89000000b8000000970000001900000007000000750000001d0000005d000000930000000800000023ffffffce000000ad,
0000004300000078ffffff8affffffa700000040ffffffebffffff58000000700000001100000042ffffffaa000000b400000044000000a50000008c000000a6,
ffffffc20000009800000051fffffea5ffffff29ffffffc3ffffff980000004600000010000000feffffff53ffffff6f0000005dffffff8cffffffb5fffffefc,
ffffffeaffffffb2ffffff6effffffadffffff72ffffff15fffffff6000000c900000013ffffff31ffffff82ffffffceffffff4dfffffef2fffffe46000000d0,
00000085ffffffbbffffffddfffffeb1ffffff28ffffffa5ffffffbbffffffdbffffffe6ffffffc9ffffff94ffffffc1ffffffddffffff69ffffff2500000031,
ffffffb6ffffffc1ffffff2affffffc7000000070000002fffffff3affffff10ffffff60ffffff6e00000013ffffff70ffffff700000003bffffff4d00000039,
ffffff90ffffffbc00000066fffffe6effffffaeffffff75ffffff87fffffff3ffffff52000000b9ffffffa3000000380000004affffffa0ffffff5700000034,
ffffffee000001210000016a0000000000000061ffffff6dfffffffbffffff3400000029ffffffd50000005b000000a00000002b0000003700000081ffffff94,
ffffffb200000011000000830000006f0000003fffffffdb0000006bffffff4c000000580000007dfffffff7000000330000000c00000005fffffffb000000da,
000000ceffffff7e00000064000001350000009700000027ffffff1c0000006dffffff1a0000004c000000b6000000c9000000cd0000004fffffff8400000023,
ffffffad000000cfffffff7b0000003e0000002dffffff6600000009ffffffa5ffffffaa000001340000003700000067ffffff49ffffff3c0000002f00000130,
ffffffcc00000106ffffffb2ffffffd1ffffff560000010f000000a4ffffff43000000a40000007b0000009fffffffd800000140000000c20000006100000167,
ffffffeeffffffe500000053ffffff6f00000009000000a6ffffff6c00000085ffffffdfffffffbc0000000000000023ffffffaaffffff6a00000001ffffffc7,
0000004a0000002bfffffff60000002c0000009b00000023ffffffba0000008f00000058ffffffa6000000baffffffc8ffffff320000000a000000c8ffffffc4,
000000a300000082ffffff98ffffff8000000074ffffffaaffffffc8000000760000003c0000019effffff07ffffff790000010000000052ffffffd0ffffffca,
ffffffc0ffffffae00000011ffffffe4ffffffb5ffffff6b0000002400000038fffffff5ffffff8d0000002000000062ffffff8a00000018000000500000003a,
ffffff9500000099000000a0ffffffa2ffffff10ffffff87ffffffa9ffffffed0000013b000000a4000000eefffffff7ffffffe2ffffffd400000078ffffff84,
ffffff52ffffff30fffffeafffffff7effffff42fffffeecfffffeed000000110000001affffff430000005dffffff9bffffffda000000caffffff8dffffff9e,
0000006effffff4dffffff3dffffffc3ffffffa3ffffff16ffffffa7ffffff8cffffffeaffffffc1000000a0ffffffc700000046ffffff920000005800000018,
ffffff4000000019ffffffaeffffff64fffffff1ffffff7e000000270000013300000071000001130000000cffffffffffffffebffffffdeffffff9d00000099,
ffffffc4ffffffffffffffb1ffffff6fffffffd800000065fffffff2ffffffb1ffffffd400000029ffffff9e00000073ffffffc5ffffffe90000001900000064,
ffffff3bffffffddffffffc5ffffff58ffffff3ffffffff9ffffff0d0000002dffffff47fffffed0ffffff39ffffff6cffffff07ffffffa8000000310000008f,
ffffff7b0000001f00000050ffffffb5fffffeb2000000b9ffffffcc00000052ffffff4bffffffbffffffff1fffffff30000001d000001040000006fffffff4d,
000000bdffffff1e0000011cfffffff7ffffffa3ffffff2f00000082000000bd00000093ffffffe3ffffff4afffffeb6ffffffb2000000310000000a00000014,
0000001affffffff00000005ffffffdf00000030ffffff230000005300000056000000520000005100000043ffffff95000000bf000000f900000083ffffffea,
00000102000000780000000f00000016ffffff43fffffff9000000260000004d000000a70000004cffffffb10000009cffffff8600000014000000600000001a,
000001150000004cffffff81ffffffec000000a7ffffff8d00000168fffffff90000001100000041ffffff14ffffff63ffffff290000001affffff720000000f,
0000006300000082ffffffb7ffffffbcffffff5bffffffaf000000240000018dffffff2dffffffd1ffffff520000001d00000031ffffffd400000044ffffffe3,
ffffffe9ffffff9d000000d5000000a1ffffff5e0000002fffffff87000000ad00000062000000f0ffffffc4fffffff8ffffffe1ffffff51ffffff5bfffffff9,
ffffff6effffff73ffffff860000009cfffffff6ffffffc8ffffff9d00000075ffffff2f00000002fffffffd000000d4ffffffe8ffffff3a000000780000005d,
ffffff2e0000009600000027ffffff8affffffe60000003000000012fffffffafffffffd0000009f000000a4000000fefffffed2ffffffa0ffffff92ffffffef,
fffffff10000009affffffddffffff79ffffffa000000030fffffffd00000003ffffffa5ffffffdcffffffe100000026fffffff3000000760000004300000002,
0000001b0000004dffffff9c00000157ffffff16ffffff4bffffffc7000000c3ffffffbf0000002fffffff980000004b00000019ffffffd6000000ceffffffbc,
00000019ffffff98ffffffd90000006afffffff0ffffff93ffffffed0000006c0000003cfffffffeffffff20000000710000008f000000480000000c0000001b,
ffffff82000000b0fffffff8ffffff5c0000004600000089ffffff8effffffb0000000a1000000de0000009f0000004fffffffacfffffff40000007300000050,
00000094ffffffd0000000f5fffffee5ffffff8900000032ffffff8affffff55ffffff89000000260000010effffffb70000004a000000a90000005f00000117,
000000ac0000001e000000af00000014ffffff51000000b4ffffff9affffffbc00000086ffffffe5ffffffadffffffdb00000014ffffffd3ffffff7fffffff09,
fffffea70000003000000078fffffff50000014e0000000e000000d6ffffff49000000580000005c00000158ffffff96ffffff3e0000004b00000083000000ca,
ffffffde0000008bffffffac00000030000000afffffff9d0000008700000031000000cd00000105fffffff20000003bfffffee3ffffffa3ffffffd80000011c,
0000007a000000790000003fffffff6bffffff1d000000b0000000eeffffffd60000009e0000012200000082000000e900000065ffffffec0000013affffff96,
ffffff59ffffffcfffffffc1ffffffd100000044ffffff5bffffff690000005a00000074fffffff000000006ffffff9c00000079ffffff5effffff1400000036,
00000162ffffff81000000a0ffffff83ffffff59ffffff97ffffff6d00000051ffffffbf0000009cfffffff90000005b000000d400000048000000480000006a,
00000038ffffff2400000107ffffff82ffffff5affffff8300000047ffffff44ffffff0affffffe00000000e00000054000000a3ffffffeb0000000bfffffffb,
0000004e00000019000000060000008effffffc100000017ffffff600000004c00000027000000da000000210000005bffffff89000000040000005c00000088,
00000164ffffffb80000007bffffffc50000003bfffffee7000000dc0000001f000000bb000000adffffff46000000400000005d00000000ffffff5500000038,
fffffffe0000004fffffffd6ffffff7f0000001d00000041000000b8fffffffc000000a80000015dffffff0effffff5dffffff4fffffffac0000002500000030,
ffffffd6ffffff8cffffff26ffffffb0ffffff7e00000017fffffeee00000064ffffffc3ffffffbcffffffad0000000dffffffeb00000004ffffffa00000004f,
ffffff45ffffffb8ffffffa0ffffffc6ffffffee000000c7ffffff5500000024000000070000000fffffff64ffffff8affffffbefffffff00000000cffffffc4,
ffffffc100000038ffffff5fffffffabffffff4600000050000000be00000098000000bb0000004fffffffa8ffffff39000000d9ffffff9cffffffbc00000037,
ffffff48ffffff6f000000ecffffff7c000000a6000000e3000000d70000002b000000d000000003000000e0000000980000009f000000dc0000005000000015,
000000e9ffffff82fffffffb00000008000000bd0000002bfffffef0ffffffbdfffffed3fffffefe0000008c00000037ffffff9f000000aeffffff7000000050,
00000052ffffffe7ffffff9f00000061000001b3ffffffee000000efffffffd500000078ffffff7fffffff0a000000370000002b00000013fffffeb100000112,
000000b2000000a50000001b000000540000000400000226ffffffb3ffffff10000000390000004600000075fffffff1000000ba000000590000004f00000084,
0000001e0000002000000100ffffff3bffffffc00000005c0000009300000068ffffffccfffffffa000000ed0000004efffffee5000000a9ffffffb300000131,
ffffff78ffffffcb0000000affffff5cffffff54fffffebc00000024000001700000007bffffffbf0000002300000016ffffff3fffffff7fffffffff00000006,
ffffff6a000000ce00000057ffffffb70000000affffff45ffffffc5ffffff820000001effffffbbffffff7dffffff420000003000000023ffffffd7ffffff76,
ffffffbc0000006dffffffd5ffffffb1ffffffa400000042ffffffca00000015000000bcffffffb4ffffff98ffffff0cffffff4800000028ffffff5affffff99,
00000004ffffffc9ffffff26ffffffc1ffffff80ffffffeb000000c0000000ccffffff8600000045ffffffb4000000d8000000220000000600000090000000e7,
000000a1000001050000000fffffffe50000011dffffff83000000f4ffffff580000001700000078ffffff88ffffff7bffffff9f000000a600000026ffffff6b,
ffffff8ffffffe6bffffffd3ffffff200000003cffffff61fffffff9ffffffc70000000000000000000000000000000000000000000000000000000000000000,
